00000000000000000000000000000000
00000000000000000000000000000000
00000000011111111110000000000000
00000011111111111111100000000000
00000111111110011111110000000000
00000111000000000001111000000000
00000111000000000000111000000000
00000111000000000000111100000000
00000111000000000001111100000000
00000111000000000011111000000000
00000111100000001111110000000000
00000111100000011111100000000000
00000111100001111111000000000000
00000111111111111110000000000000
00000111111111111111100000000000
00000111111111111111110000000000
00000111111111111111111000000000
00000111111000000111111000000000
00000111100000000000111000000000
00000111100000000000111100000000
00000111100000000000111000000000
00000011100000000001111000000000
00000011110000000011111000000000
00000111110000000111110000000000
00000011110000011111110000000000
00000011111111111111100000000000
00000011111111111111000000000000
00000111111111111110000000000000
00000111111111111000000000000000
00000011111110000000000000000000
00000000000000000000000000000000
00000000000000000000000000000000
