00000000000000000000000000000000
00000000000000000000000000000000
00000000000000011111110000000000
00000000000001111111110000000000
00000000000111110000111000000000
00000000011111000000011000000000
00000000011100000000011000000000
00000000111000000000011000000000
00000000111000000000011000000000
00000000111000000000011000000000
00000000111100000000111000000000
00000000001100000011111000000000
00000000001100011111111000000000
00000000001101111111111110000000
00000000001111111111111110000000
00000000001111111111001111000000
00000000001111111110000111100000
00000000001111111000000011100000
00000000001111110000000011100000
10000000001100000000000011100000
00000000001110000000000111100000
10000000001110000000000111100000
11000000001110000000001111000000
10000000001110000000011111000000
11000000001110000001111110000000
11100000001110001111111110000000
11100000011111111111111000000000
11110000111111111111111010000000
11111111111111111111100001000000
11111111111111111111100000000000
11111110100111111001100000001110
11111111111111111111000100000000
