00000000000000000000000000000000
00000000000000001111110000000000
00000000000000011111111000000000
00000000000001111100111100000000
00000000000011110000011100000000
00000000000111000000011100000000
00000000001110000000011100000000
00000000011110000000011100000000
00000000011110000000011100000000
00000000011110000000111100000000
00000000011110000000111100000000
00000000001110000001111000000000
00000000001110000011111000000000
00000000001110001111110000000000
00000000001110011111110000000000
00000000001110111111111000000000
00000000001110111111111100000000
00000000011110111100111100000000
00000000011110010000111100000000
00000000011110000000111100000000
00000000011100000000111100000000
00000000011100000001111100000000
00000000011100000011111000000000
00000000111100000111111000000000
00000000111111111111110000000000
00000000111111111111110000000000
00000001111111111111000000000000
00000001111111111110000000000000
11000000111111100000000000000000
00100001111000000000000000000000
10000000111000000000000000000000
01000001110001000000100000000000
