00000000000000000000000000000000
00000000000000000000000000000000
00000000000000000000000000000000
00000000111111111111111000000000
00000001111111111111111100000000
00000111111111111111111110000000
00000111111100000000111110000000
00000011110000000000011110000000
00000001110000000000111110000000
00000001110000000001111100000000
00000001110000000111111100000000
00000001110000001111111000000000
00000001110000111111110000000000
00000001110111111111110000000000
00000001110111111111111110000000
00000001110111111111111111100000
00000001110011111111111111110000
00000001110000000000001111110000
00000001111000000000000011110000
00000001111000000000000111110000
00000001111000000000001111110000
00000011111000000000111111100000
00000001111000001111111111100000
00000001111111111111111111000000
00000001111111111111111100000000
00000001111111111111111000000000
00000001111111111111000000000000
00000001111111110000000000000000
00000001111100000000000000000000
00000001111000000000000000000000
00000000000000000000000000000000
00000000000000000000000000000000
