00000000000000000000000000000000
00000000000000000000000000000000
00000000000000000000000000000000
00000000111111111111000000000000
00000111111111111111110000000000
00011111111100000011111000000000
00011100111000000000011100000000
00000000111100000000011100000000
00000000011100000000111100000000
00000000011100000011111100000000
00000000011100001111111000000000
00000000011101111111111000000000
00000000011101111111111110000000
00000000011111111111111111100000
00000000011111111111111111110000
00000000011111100000000111110000
00000000011110000000000001110000
00000000001110000000000111110000
00000000001110000000001111110000
00000000001110000000011111100000
00000000001110000011111111100000
00000000001111111111111111000000
00000000011111111111111100000000
00000000011111111111111000000000
00000000011111111111110000000000
00000000011111110000000000000000
00000000000000000000000000000000
00000000000000000000000000000000
00000000000000000000000000000100
00000000000000000000000000001110
00000000000000000000000000001101
00000000000000000000000000000101
